11100111
10000111
01101101
01100100
00011110
10101000
01110101
01111100
01010110
11100000
10001110
11101100
00101001
11010010
10100100
00001010
11010010
01000010
01111010
01101101
00011100
10111111
10011010
10000011
10110000
01110101
11110101
11001011
01000010
10011000
01000010
11110110
00000100
00011000
10100110
00000011
11110100
10000100
11111110
10010001
11011010
00010100
11110100
10010111
00100110
10000011
10011001
10110001
00010100
00100100
10000010
00110011
00111100
00001100
01010011
00000101
10001100
11000011
00111000
10101011
11101101
10000000
10010011
01111100
