11111010
00000100
01111100
11010101
10101100
11000010
10011010
11110101
01100111
01000000
00111000
00100011
10000111
00010110
10111100
10011001
10110100
10111001
01100000
10011111
11000000
01010101
00111100
11001110
00011100
01111001
01011000
11001010
01011110
11100111
01110000
01001000
01000000
10010101
11010010
00110100
10000111
01011101
00101101
00011001
10100001
11000000
10110000
10001111
11000011
10011010
11011100
11001010
11011011
11000111
10011000
01100010
01001001
10010101
01011101
00011001
11101100
01111010
01111100
10011010
11100110
00010001
00100101
10110000
