10111011
00001100
10011010
01100111
00101110
00101111
11110001
10001111
11101001
10110110
10010111
11011100
10000100
10000000
11010011
00101010
01101000
00100110
10101011
00001011
01111010
10100100
10011100
01011100
01000001
10000000
01011111
11011010
00111000
01010110
10001111
11101111
00100011
10011000
00001101
01011011
10011100
10001011
11000111
01000011
11001110
11100111
00111000
00001011
11101100
00111001
00001101
10111010
01100110
01110010
01110100
00101110
00111010
10010011
11101011
00110001
00100000
01100111
11110101
01111100
11101110
11101011
00000000
10010001
