00101000
01000101
00110101
00100110
00110100
01011110
10110101
01000111
00111111
11110101
01111001
01110111
01001100
10100010
01000100
10100100
11011111
01101001
10000111
10101101
00010100
10111110
10111000
01111111
11111100
10111001
01000001
00000000
00000010
00110100
01111011
01011001
00000110
00100001
11111100
11110111
10110111
11011101
10011011
11100010
00110010
01111101
10100001
11001100
01010010
10010100
01001010
10010000
11110011
00011110
00000000
11000101
01110011
00011101
00100101
00011000
01110001
10110001
00010101
11111101
01100110
00001100
01101001
01011010
