01101010
11110000
11001011
10101101
10010011
10011001
10001000
10001001
00001001
11110000
01010101
10111111
01100111
11011110
01011010
01000100
00011000
11101010
11101010
10011111
11101101
01111101
11100110
00111011
11110100
01111110
11100111
11110111
00100001
00111111
00100010
01001000
10110001
10110101
01111010
01110011
11101011
00101100
00010000
01000100
00101011
01000010
10111011
01001110
00001100
10011110
11000001
10100101
10110101
00101100
11000000
10011000
10001010
00101011
00010100
00111011
11100110
01101111
00100100
00000010
11111011
11111000
00001010
10001111
