10100110
10100101
11111110
01001001
01101000
11001001
01111101
11000110
10111101
11100011
11000100
11111100
00111110
10111000
00101010
00000001
00110001
11101100
01111010
11011111
00111111
00111011
01100111
00010100
01000101
00111001
00000001
00100101
01001010
01010110
10010101
00100001
11000010
10001110
11000111
00111111
01010011
00111111
10011110
00110110
00110111
11000100
00011101
01001100
00001111
01111110
00100101
00111100
11011010
11111010
00010101
00000101
11111010
01100010
00100001
11101111
11001111
10000001
10110110
01111000
11011011
01100010
10011111
00000110
