11010100
00101000
00101011
00000100
11010011
00000011
01011101
10010101
00011001
11110011
11010111
10100011
10111100
11100110
01111001
00100101
00100100
11101111
11100001
01000100
01011011
11011000
10010010
11101011
11111111
01100110
01100010
11111001
01111110
01101110
11010001
00111000
00110011
01101011
01010010
11100001
10111010
10010111
10110000
00111000
10111111
11110101
11001110
01001010
01101111
00000011
01101100
10000001
10011100
01010101
11000111
11110001
00111001
10001100
10000100
10110011
00001101
10100100
00110100
11111000
00110011
10010101
11011110
10111100
