11100101
01000111
10101101
01101100
10011101
01011101
01100010
11011100
00001101
01010111
10001110
01000100
00111111
10101110
00111010
10110100
00101101
11010010
00101111
01000000
11111101
00011001
10110011
10001100
01110100
10000100
00001011
10011101
00101100
00111100
11001110
01010100
01101110
11010110
00001011
11100100
01100010
11000111
11010110
00000101
11101000
10100111
00010000
11010111
10101010
10010011
11010010
11110101
10000011
10110100
00111110
10110011
00001001
11110111
10010111
11101011
00110010
10010011
11111111
00011100
11010101
10101110
11111010
00011010
