01100111
00001011
11010101
10001000
10000111
01010001
10110011
10111111
11011111
11011111
10101111
01010110
10100100
10001010
00110001
10110001
11111000
00110101
10010111
10001011
00010111
10101011
10001000
11101101
11000101
10101011
00010100
10010101
00000110
10011000
10101111
00001011
00111111
11111010
10000010
01100011
00110001
10000111
01110111
00111010
00000010
11110110
00110010
10110111
00111111
10001001
00101111
11100001
11100100
00101110
00011100
11001101
01000001
10010000
10000111
00100101
11011110
10111100
01010010
00000110
10001001
10100000
00110010
10111111
