11010000
00011110
00000100
10110111
11010001
00111000
11000111
10000110
10111101
01010011
01111000
10111001
10010101
01111111
10000110
01111000
01111010
10110111
10010000
10111001
01010111
11111111
01001111
10011010
10110010
01000000
10010010
01000101
11110011
11110011
11001011
00101010
10111101
10100011
01110100
00110101
00001100
10011011
00010001
11100101
00010101
00001001
11001001
01001010
10000001
00111101
10101101
11010100
10000111
11010110
11010010
00001111
00101011
01001011
11101000
01101011
10111111
10010101
01001110
01111110
01000011
01001010
01111111
01011111
