10010101
10001110
00000000
01110011
00010110
00010011
10110110
01100010
11010111
10100000
01111000
00010100
01110100
10110111
10110001
11000111
11110001
11011100
01110111
10101011
11000001
00010110
10001001
00000101
01110111
11111111
11100101
01110111
10010010
11000011
10010010
10010101
01000010
10100110
10101111
01010000
10101100
11001111
11110011
01000010
11101001
00101010
10001100
10110001
00000110
00111100
01011010
01111100
01110000
00000001
10110000
11001010
10011010
11111011
00011011
11101000
11011010
11001011
00001111
11011101
01010011
11000010
10010001
10000000
