11011100
01110001
10010100
11000001
01101000
00010110
00000011
10001100
00111010
00101100
01100111
11110011
01111111
10101001
00111101
11100111
11011011
00100111
01100101
11110110
10000101
00101111
11111000
01100100
10000101
10000001
10111011
01101011
00001011
10100001
00010010
01011010
00000111
01011011
01111001
11001110
01100001
00111110
11110100
01010000
00101001
10111110
01100001
11010000
01010010
00100011
00000011
01101110
00000100
00000011
00111110
01010110
01011001
01101111
01111111
00011110
00010100
11011100
10001010
00000000
01000010
10000000
11011010
11001010
