10101111
10111110
01001100
11111111
01100100
11101101
10101010
11111111
11011001
01110001
11100111
11101001
01100000
11110011
11111101
11010100
10110001
11000110
01101000
00000100
00010100
10111111
10100111
10010011
00010001
11011010
11011111
00010010
11011101
01111101
10100100
00001101
11000101
11011110
00111100
01001110
10010001
01100000
11101011
11111011
01111111
01110010
00110000
11100111
10110010
11100011
11011000
00011110
11011011
11001000
11001010
01010100
11010011
00111111
00010001
00110111
00010011
00110101
10000111
01010100
11100101
00100100
10111101
01110111
