10110010
10110110
10001011
11000111
10101011
10101001
01001110
11110100
10100011
01111100
11111100
00101100
01100010
11010101
00011000
10101011
01010101
00010010
11000010
10000110
10000100
11000111
00100111
00000000
10110111
00111111
10010111
11000011
11101101
11001011
01010011
10101001
00101100
11010100
00101000
01111100
01001011
10001000
00110001
11100111
11010101
10010000
11101110
10000100
01111011
01010011
11011110
11011110
00000010
11000001
11011111
11001010
00001101
11000110
11000011
00111011
10011010
10100000
11100010
00010110
10101011
10101001
00100101
10010100
