01000001
01111101
00001000
10010100
11011010
10011110
10010100
10111000
00101101
11110011
11000011
00001000
10010010
11001000
10100111
10011000
00001000
01011110
00101010
01000001
01010101
00001101
10111110
11101111
01010110
01100110
10111000
01110110
00011100
10001010
01010010
01000111
01100011
00111101
10010111
01000001
00000100
00010001
00000111
00110101
11100100
00100111
11010001
10000011
01111000
11101100
00010001
10010101
01100110
11110000
01000110
00001111
10101110
00111110
01111011
01101100
10110110
10111000
01111110
01101101
10011100
11011001
10111110
10100101
