01110011
00110110
00010110
01110010
11011001
00111011
00011111
10010101
11110001
01110000
00100111
00001110
00100111
10101101
01000110
00111110
11011001
00011100
01101111
00001000
10100101
00011111
00011111
11011000
10011011
00111010
01101011
11001010
10010011
10000110
01111110
11001010
00100110
01011101
11100001
10110000
11111010
10111011
00000100
01001101
10011101
11111100
01001010
11011100
10000001
11100011
01000110
00001000
10110101
00110101
00111110
01010010
01001011
10011110
10000100
11101010
11010101
11001010
11101011
10100010
11001011
11111111
01010101
11001011
